TRT-8001-EntropyCalibration2
input_1: 3f9849a2
conv1: 411b5a2a
bn_conv1: 3db6e2a4
activation_1/Relu: 3db771df
block_1a_conv_1: 3d5e5fd9
block_1a_conv_shortcut: 3d0e678a
block_1a_bn_1: 3d9d3e7a
block_1a_bn_shortcut: 3d9d9546
activation_2/Relu: 3da1bf13
block_1a_conv_2: 3d7ba16e
block_1a_bn_2: 3d8bde10
add_1: 3dd5957d
activation_3/Relu: 3de22a53
block_1b_conv_1: 3d8d0994
block_1b_conv_shortcut: 3d80dd06
block_1b_bn_1: 3d989487
block_1b_bn_shortcut: 3d961897
activation_4/Relu: 3d98f9a7
block_1b_conv_2: 3da488c1
block_1b_bn_2: 3da8144b
add_2: 3df67b08
activation_5/Relu: 3ddf1609
block_2a_conv_1: 3d187e70
block_2a_conv_shortcut: 3d2e7195
block_2a_bn_1: 3d9409f7
block_2a_bn_shortcut: 3d919eb7
activation_6/Relu: 3d8df02f
block_2a_conv_2: 3d0a6a78
block_2a_bn_2: 3da15af6
add_3: 3dd8cf90
activation_7/Relu: 3dcd7ea7
block_2b_conv_1: 3d97647f
block_2b_conv_shortcut: 3d546088
block_2b_bn_1: 3da6751c
block_2b_bn_shortcut: 3d86d03d
activation_8/Relu: 3da6e61f
block_2b_conv_2: 3d079503
block_2b_bn_2: 3db9d0da
add_4: 3dec6b22
activation_9/Relu: 3dfe1de0
block_3a_conv_1: 3d2d2cdb
block_3a_conv_shortcut: 3d3ee7d4
block_3a_bn_1: 3dd2a658
block_3a_bn_shortcut: 3db4782b
activation_10/Relu: 3dcf5928
block_3a_conv_2: 3d29f95a
block_3a_bn_2: 3e038d7f
add_5: 3e285798
activation_11/Relu: 3e222829
block_3b_conv_1: 3df5c3b6
block_3b_conv_shortcut: 3d8a69e4
block_3b_bn_1: 3e1188c3
block_3b_bn_shortcut: 3de0b6c3
activation_12/Relu: 3e1158d8
block_3b_conv_2: 3d2e0cb5
block_3b_bn_2: 3e1a0c5a
add_6: 3e4b85b5
activation_13/Relu: 3e635ced
block_4a_conv_1: 3e67d146
block_4a_conv_shortcut: 3d607133
block_4a_bn_1: 3e1cc483
block_4a_bn_shortcut: 3e139409
activation_14/Relu: 3e1c8159
block_4a_conv_2: 3ea32cee
block_4a_bn_2: 3db0cdcd
add_7: 3e3f86a5
activation_15/Relu: 3ddb17e3
block_4b_conv_1: 3dcc1888
block_4b_conv_shortcut: 3d133c41
block_4b_bn_1: 3e19f082
block_4b_bn_shortcut: 3e01f83a
activation_16/Relu: 3e1fe930
block_4b_conv_2: 3e347130
block_4b_bn_2: 3e09d1a5
add_8: 3e353efc
activation_17/Relu: 3e3275d7
flatten_1: 3e3275d7
predictions: 3e443eef
predictions/Softmax: 3c0111e8
