TRT-8001-EntropyCalibration2
input_1: 3f9849a2
conv1: 418c4488
bn_conv1: 3dc4844d
activation_1/Relu: 3ddd40d0
block_1a_conv_1: 3dfa3182
block_1a_conv_shortcut: 3d3dff96
block_1a_bn_1: 3dadddbc
block_1a_bn_shortcut: 3da7144b
activation_2/Relu: 3da77cd1
block_1a_conv_2: 3dbb56bf
block_1a_bn_2: 3d939f42
add_1: 3df85e8a
activation_3/Relu: 3df768e4
block_1b_conv_1: 3ddd5254
block_1b_conv_shortcut: 3d9482c7
block_1b_bn_1: 3d945164
block_1b_bn_shortcut: 3da6c4a3
activation_4/Relu: 3d84f6f5
block_1b_conv_2: 3d68bb18
block_1b_bn_2: 3d89c62e
add_2: 3de4c2f4
activation_5/Relu: 3dc770ba
block_2a_conv_1: 3d36f881
block_2a_conv_shortcut: 3d24ce50
block_2a_bn_1: 3d7afb95
block_2a_bn_shortcut: 3d75e0a6
activation_6/Relu: 3d85f639
block_2a_conv_2: 3d4ec3b0
block_2a_bn_2: 3d660625
add_3: 3da0bcd9
activation_7/Relu: 3d9ca9d9
block_2b_conv_1: 3db6a863
block_2b_conv_shortcut: 3d1b7b7d
block_2b_bn_1: 3d4664ed
block_2b_bn_shortcut: 3d5c48a5
activation_8/Relu: 3d4bca44
block_2b_conv_2: 3d50f6cd
block_2b_bn_2: 3d819084
add_4: 3daf1e7b
activation_9/Relu: 3daf388a
block_3a_conv_1: 3e51156e
block_3a_conv_shortcut: 3cf872ea
block_3a_bn_1: 3d70a50c
block_3a_bn_shortcut: 3d75ddea
activation_10/Relu: 3d6939bd
block_3a_conv_2: 3d454d31
block_3a_bn_2: 3d71d88a
add_5: 3dabdd84
activation_11/Relu: 3daef8d3
block_3b_conv_1: 3e290ea2
block_3b_conv_shortcut: 3d12c6af
block_3b_bn_1: 3d2c6dd8
block_3b_bn_shortcut: 3d6fded1
activation_12/Relu: 3d2c5a29
block_3b_conv_2: 3db75f74
block_3b_bn_2: 3d49a1bc
add_6: 3d9ad609
activation_13/Relu: 3d93c383
block_4a_conv_1: 3e601ab0
block_4a_conv_shortcut: 3c8b3f94
block_4a_bn_1: 3d1d5264
block_4a_bn_shortcut: 3d54bd2c
activation_14/Relu: 3d228851
block_4a_conv_2: 3d1a67c8
block_4a_bn_2: 3d2d9978
add_7: 3d863e50
activation_15/Relu: 3d863e50
block_4b_conv_1: 3f005ebf
block_4b_conv_shortcut: 3ce6b5fc
block_4b_bn_1: 3d684745
block_4b_bn_shortcut: 3d5b27cc
activation_16/Relu: 3d710886
block_4b_conv_2: 3d2e0ae3
block_4b_bn_2: 3d84253a
add_8: 3db8f016
activation_17/Relu: 3dc43f23
flatten_1: 3dc43f23
predictions: 3e1676d4
predictions/Softmax: 3c01e646
