TRT-8001-EntropyCalibration2
input_1: 3f9849a2
conv1: 41dcb997
bn_conv1: 3db0f63a
activation_1/Relu: 3ddd5bb1
block_1a_conv_1: 3d5f099c
block_1a_conv_shortcut: 3cf0a1d2
block_1a_bn_1: 3da8c7aa
block_1a_bn_shortcut: 3d9d87f0
activation_2/Relu: 3db4bc8d
block_1a_conv_2: 3d9ac007
block_1a_bn_2: 3daf78cc
add_1: 3df331d3
activation_3/Relu: 3de2e375
block_1b_conv_1: 3d7d89e4
block_1b_conv_shortcut: 3d7307fd
block_1b_bn_1: 3d9f8262
block_1b_bn_shortcut: 3db5abf4
activation_4/Relu: 3d8d87be
block_1b_conv_2: 3d4044b9
block_1b_bn_2: 3dae8b30
add_2: 3def7235
activation_5/Relu: 3dcc441e
block_2a_conv_1: 3d1809e9
block_2a_conv_shortcut: 3d3172e0
block_2a_bn_1: 3d964ae0
block_2a_bn_shortcut: 3d8e039b
activation_6/Relu: 3d964ae0
block_2a_conv_2: 3cc090b7
block_2a_bn_2: 3d87d953
add_3: 3dbc1ee8
activation_7/Relu: 3dc5dfce
block_2b_conv_1: 3d41f364
block_2b_conv_shortcut: 3d255723
block_2b_bn_1: 3d879794
block_2b_bn_shortcut: 3d792d66
activation_8/Relu: 3d879794
block_2b_conv_2: 3cd97e22
block_2b_bn_2: 3d8d1160
add_4: 3dbfae8e
activation_9/Relu: 3dc98a64
block_3a_conv_1: 3cfb1802
block_3a_conv_shortcut: 3cfcdca8
block_3a_bn_1: 3d842420
block_3a_bn_shortcut: 3d7bdbeb
activation_10/Relu: 3d88a9a1
block_3a_conv_2: 3c920ced
block_3a_bn_2: 3d7def97
add_5: 3da449d1
activation_11/Relu: 3da5ad2a
block_3b_conv_1: 3d09e998
block_3b_conv_shortcut: 3ce11504
block_3b_bn_1: 3d4de015
block_3b_bn_shortcut: 3d572d4d
activation_12/Relu: 3d510f02
block_3b_conv_2: 3c96952d
block_3b_bn_2: 3d6299be
add_6: 3d938e4c
activation_13/Relu: 3da213d6
block_4a_conv_1: 3d0c15af
block_4a_conv_shortcut: 3c895bce
block_4a_bn_1: 3d5ed7a9
block_4a_bn_shortcut: 3d788200
activation_14/Relu: 3d601c42
block_4a_conv_2: 3c3a4810
block_4a_bn_2: 3d8d6fbe
add_7: 3daca78a
activation_15/Relu: 3da27f41
block_4b_conv_1: 3e4a3607
block_4b_conv_shortcut: 3cbe3ed9
block_4b_bn_1: 3d8b3029
block_4b_bn_shortcut: 3d9464de
activation_16/Relu: 3d941e56
block_4b_conv_2: 3cbec1d4
block_4b_bn_2: 3d95f5c9
add_8: 3e0a8f29
activation_17/Relu: 3e1d76d2
flatten_1: 3e1d76d2
predictions: 3e356084
predictions/Softmax: 3c01106f
